00000000
000003e8
000007d0
00000bb8
00000fa0
00001388
00001770
00001b58
00001f40
00002328
00000000
000186a0
00030d40
000493e0
00061a80
0007a120
000927c0
000aae60
000c3500
000dbba0
00000000
000186a0
00030d40
000493e0
00061a80
0007a120
000927c0
000aae60
000c3500
000dbba0
00000000
001e8480
003d0900
005b8d80
007a1200
00989680
00b71b00
00d59f80
00f42400
0112a880
